<pad>	0
<unk>	0
<s>	0
</s>	0
▁t	-0
he	-1
ou	-2
▁a	-3
in	-4
re	-5
..	-6
▁s	-7
▁w	-8
at	-9
▁I	-10
on	-11
▁the	-12
is	-13
▁y	-14
▁b	-15
▁m	-16
ll	-17
▁you	-18
an	-19
er	-20
▁c	-21
hat	-22
it	-23
ing	-24
...	-25
▁W	-26
▁f	-27
▁T	-28
▁d	-29
▁to	-30
or	-31
▁g	-32
▁h	-33
en	-34
▁l	-35
▁o	-36
es	-37
ar	-38
▁S	-39
as	-40
▁H	-41
ed	-42
▁p	-43
ow	-44
▁n	-45
?!	-46
om	-47
et	-48
ve	-49
▁th	-50
▁Y	-51
gh	-52
▁he	-53
▁of	-54
us	-55
▁is	-56
▁it	-57
▁an	-58
▁be	-59
ay	-60
▁M	-61
ot	-62
ght	-63
▁A	-64
le	-65
▁that	-66
▁B	-67
▁The	-68
ke	-69
▁in	-70
ri	-71
▁on	-72
ld	-73
▁we	-74
am	-75
▁L	-76
id	-77
▁You	-78
ac	-79
ain	-80
▁e	-81
▁What	-82
▁me	-83
ut	-84
ir	-85
ad	-86
▁O	-87
im	-88
▁He	-89
▁D	-90
oo	-91
▁C	-92
▁st	-93
▁this	-94
▁re	-95
ver	-96
al	-97
ill	-98
▁and	-99
▁N	-100
un	-101
out	-102
▁Th	-103
▁for	-104
os	-105
▁ha	-106
ly	-107
▁We	-108
▁G	-109
▁are	-110
▁It	-111
ea	-112
ur	-113
ust	-114
▁do	-115
ho	-116
▁k	-117
and	-118
▁can	-119
▁li	-120
ce	-121
ch	-122
▁go	-123
▁sh	-124
▁P	-125
up	-126
▁your	-127
▁That	-128
op	-129
ome	-130
all	-131
ter	-132
▁F	-133
ith	-134
▁was	-135
ack	-136
▁K	-137
ap	-138
ry	-139
▁j	-140
▁-	-141
ould	-142
▁my	-143
ent	-144
▁with	-145
▁have	-146
▁all	-147
right	-148
ake	-149
▁so	-150
ro	-151
▁Main	-152
ion	-153
ec	-154
one	-155
ff	-156
oun	-157
se	-158
her	-159
▁us	-160
▁R	-161
▁up	-162
ee	-163
ra	-164
▁not	-165
ic	-166
▁as	-167
our	-168
▁get	-169
00	-170
▁here	-171
um	-172
▁right	-173
▁just	-174
▁out	-175
ard	-176
ight	-177
st	-178
▁like	-179
▁ab	-180
▁Hey	-181
▁at	-182
ant	-183
▁E	-184
uff	-185
▁ne	-186
ate	-187
▁St	-188
hing	-189
ven	-190
ure	-191
ip	-192
ast	-193
ong	-194
ig	-195
▁gu	-196
ore	-197
ook	-198
▁al	-199
▁r	-200
if	-201
▁wor	-202
il	-203
▁This	-204
▁them	-205
▁no	-206
ie	-207
▁kn	-208
▁fr	-209
uffy	-210
▁de	-211
ge	-212
▁will	-213
▁him	-214
ess	-215
▁they	-216
ood	-217
▁Luffy	-218
ell	-219
ought	-220
▁what	-221
▁sa	-222
pp	-223
▁one	-224
▁Wh	-225
▁don	-226
▁there	-227
▁too	-228
▁Oh	-229
ive	-230
▁now	-231
ak	-232
▁Don	-233
▁No	-234
▁know	-235
ose	-236
na	-237
▁but	-238
▁from	-239
ally	-240
eah	-241
▁any	-242
▁about	-243
▁But	-244
est	-245
▁see	-246
▁did	-247
land	-248
▁guy	-249
very	-250
▁our	-251
▁back	-252
▁So	-253
▁ship	-254
ck	-255
ind	-256
▁If	-257
▁way	-258
ous	-259
are	-260
ord	-261
▁who	-262
way	-263
▁Is	-264
▁They	-265
▁♪	-266
▁An	-267
ab	-268
ue	-269
▁Yeah	-270
▁9	-271
ine	-272
here	-273
▁if	-274
ame	-275
▁got	-276
▁U	-277
▁en	-278
ount	-279
▁tr	-280
ist	-281
ear	-282
ers	-283
▁5	-284
ink	-285
ound	-286
▁tim	-287
▁Let	-288
▁How	-289
ul	-290
uh	-291
▁ag	-292
own	-293
▁ex	-294
art	-295
ough	-296
▁J	-297
▁There	-298
▁un	-299
▁4	-300
ond	-301
ol	-302
▁some	-303
ank	-304
ct	-305
ait	-306
▁com	-307
▁pl	-308
ase	-309
uch	-310
▁man	-311
▁time	-312
em	-313
ady	-314
▁gon	-315
▁his	-316
▁wh	-317
ash	-318
▁let	-319
oughts	-320
▁ch	-321
od	-322
▁want	-323
▁gonna	-324
▁Thoughts	-325
ami	-326
▁Why	-327
raw	-328
▁going	-329
▁were	-330
▁would	-331
▁pir	-332
▁Who	-333
▁V	-334
ates	-335
▁her	-336
tain	-337
▁say	-338
...!	-339
▁even	-340
▁ar	-341
qu	-342
▁guys	-343
ble	-344
kay	-345
hen	-346
ace	-347
ary	-348
end	-349
▁look	-350
ji	-351
▁Sh	-352
▁And	-353
king	-354
▁v	-355
▁could	-356
ob	-357
▁Fl	-358
reat	-359
▁happ	-360
omet	-361
▁off	-362
▁int	-363
▁Straw	-364
ect	-365
oss	-366
▁by	-367
000	-368
ort	-369
▁take	-370
ation	-371
▁think	-372
▁1	-373
▁has	-374
▁Hat	-375
,000	-376
▁Do	-377
▁island	-378
fter	-379
▁been	-380
▁sp	-381
▁good	-382
ep	-383
red	-384
▁every	-385
▁le	-386
▁down	-387
▁"	-388
▁should	-389
▁br	-390
▁tw	-391
▁Yes	-392
▁won	-393
▁Are	-394
iv	-395
omething	-396
▁how	-397
el	-398
▁San	-399
▁over	-400
▁Huh	-401
▁need	-402
▁really	-403
old	-404
tle	-405
▁she	-406
▁Nami	-407
other	-408
▁away	-409
ies	-410
ice	-411
lease	-412
▁again	-413
aptain	-414
ide	-415
ky	-416
ons	-417
▁Sanji	-418
▁cl	-419
▁fight	-420
rong	-421
ost	-422
ite	-423
▁8	-424
▁bec	-425
der	-426
wn	-427
▁bl	-428
▁more	-429
▁sw	-430
▁their	-431
▁come	-432
▁only	-433
ish	-434
ag	-435
ious	-436
fe	-437
econd	-438
▁still	-439
▁pr	-440
▁Big	-441
▁make	-442
▁Al	-443
▁am	-444
▁50	-445
▁sea	-446
▁happen	-447
ther	-448
ree	-449
▁then	-450
ire	-451
▁mean	-452
▁Well	-453
▁something	-454
urn	-455
sel	-456
thing	-457
▁or	-458
pl	-459
▁sc	-460
back	-461
▁On	-462
ud	-463
▁Flash	-464
▁kill	-465
▁never	-466
ove	-467
▁In	-468
▁pe	-469
ears	-470
▁Just	-471
age	-472
▁Flashback	-473
opp	-474
use	-475
den	-476
▁Now	-477
▁after	-478
▁must	-479
ople	-480
orry	-481
▁those	-482
ity	-483
▁thing	-484
be	-485
▁Dam	-486
ready	-487
▁long	-488
ick	-489
▁already	-490
og	-491
▁She	-492
th	-493
rew	-494
lp	-495
ull	-496
▁My	-497
ting	-498
▁pre	-499
▁world	-500
▁sure	-501
▁con	-502
▁tell	-503
▁Where	-504
▁die	-505
ass	-506
ower	-507
▁two	-508
ty	-509
ade	-510
▁fl	-511
oy	-512
ama	-513
▁said	-514
▁pirate	-515
▁years	-516
▁other	-517
▁into	-518
▁im	-519
▁people	-520
▁head	-521
ren	-522
▁Z	-523
ance	-524
unn	-525
▁much	-526
iss	-527
▁wait	-528
▁Stop	-529
...?	-530
ause	-531
▁Pir	-532
▁Thank	-533
▁Second	-534
self	-535
▁when	-536
iz	-537
▁All	-538
▁Mom	-539
▁doing	-540
ang	-541
▁Us	-542
ile	-543
▁ke	-544
▁count	-545
▁Please	-546
▁had	-547
▁Bl	-548
▁lea	-549
▁day	-550
atch	-551
▁hell	-552
▁didn	-553
oin	-554
▁gr	-555
▁id	-556
▁Secondary	-557
ater	-558
ving	-559
ves	-560
ach	-561
▁bel	-562
▁care	-563
oro	-564
▁Usopp	-565
ounty	-566
ma	-567
▁pro	-568
▁Then	-569
▁Go	-570
ever	-571
▁Mar	-572
▁qu	-573
▁sur	-574
▁bet	-575
▁why	-576
ather	-577
ment	-578
ittle	-579
▁Get	-580
fore	-581
▁Be	-582
▁Look	-583
▁stop	-584
▁Captain	-585
▁Bell	-586
▁Island	-587
▁thr	-588
▁Wait	-589
▁Br	-590
ki	-591
▁Okay	-592
▁cr	-593
▁tal	-594
ool	-595
▁att	-596
au	-597
▁where	-598
▁big	-599
▁does	-600
▁great	-601
ath	-602
ock	-603
▁okay	-604
▁fin	-605
per	-606
de	-607
uit	-608
atter	-609
urry	-610
▁eat	-611
▁try	-612
▁little	-613
ber	-614
isten	-615
▁Oden	-616
▁thought	-617
ved	-618
▁se	-619
▁these	-620
hed	-621
mit	-622
irst	-623
▁call	-624
▁hand	-625
▁place	-626
▁bad	-627
▁help	-628
gg	-629
▁Sp	-630
ding	-631
ft	-632
▁than	-633
▁pirates	-634
▁Did	-635
▁matter	-636
▁before	-637
act	-638
▁dis	-639
▁crew	-640
▁under	-641
▁Mama	-642
ta	-643
▁made	-644
▁sorry	-645
ful	-646
▁Rob	-647
▁Ka	-648
▁Cho	-649
▁Mr	-650
▁Your	-651
get	-652
esc	-653
▁Zoro	-654
▁Pirates	-655
ds	-656
anna	-657
▁strong	-658
ody	-659
▁King	-660
▁name	-661
▁keep	-662
▁47	-663
▁act	-664
▁Even	-665
ew	-666
able	-667
ave	-668
ise	-669
▁country	-670
05	-671
▁around	-672
ans	-673
▁ro	-674
▁find	-675
ial	-676
▁isn	-677
▁Every	-678
▁through	-679
eel	-680
▁wanna	-681
▁leave	-682
▁ri	-683
erma	-684
▁work	-685
ince	-686
▁real	-687
▁Robin	-688
▁coming	-689
▁Alright	-690
▁enough	-691
▁own	-692
▁old	-693
▁Fr	-694
uck	-695
▁1,	-696
ible	-697
ye	-698
riend	-699
▁Bounty	-700
iot	-701
▁esc	-702
▁Belly	-703
7,000	-704
▁To	-705
▁run	-706
ub	-707
▁1,05	-708
7,000,000	-709
▁anything	-710
▁1,057,000,000	-711
▁ser	-712
▁life	-713
▁51	-714
▁give	-715
ido	-716
▁sho	-717
▁Lord	-718
pper	-719
▁everyone	-720
orm	-721
rie	-722
▁power	-723
▁En	-724
less	-725
▁sir	-726
aking	-727
▁Germa	-728
▁happened	-729
ild	-730
▁Damn	-731
unny	-732
▁res	-733
▁Kaido	-734
▁fa	-735
▁well	-736
▁tre	-737
▁friend	-738
▁nothing	-739
ape	-740
▁war	-741
▁belie	-742
oll	-743
▁imp	-744
▁As	-745
ream	-746
▁such	-747
▁set	-748
▁Not	-749
▁rem	-750
▁48	-751
▁first	-752
▁cour	-753
astard	-754
▁because	-755
▁Ar	-756
▁dam	-757
▁Come	-758
ory	-759
▁sword	-760
res	-761
▁kind	-762
▁heard	-763
▁end	-764
▁sup	-765
asure	-766
▁huh	-767
▁sky	-768
▁part	-769
▁bastard	-770
▁When	-771
▁use	-772
▁feel	-773
▁kid	-774
▁new	-775
ms	-776
▁ass	-777
▁sl	-778
▁came	-779
▁Ch	-780
▁...	-781
cc	-782
▁di	-783
ated	-784
▁alive	-785
▁attack	-786
ts	-787
▁idiot	-788
▁wrong	-789
chi	-790
▁hear	-791
▁course	-792
▁believe	-793
ano	-794
▁show	-795
ors	-796
▁ins	-797
▁yet	-798
▁town	-799
▁ad	-800
▁rest	-801
▁49	-802
oney	-803
▁Gr	-804
▁sm	-805
unk	-806
▁bo	-807
head	-808
▁dead	-809
▁left	-810
▁someone	-811
▁food	-812
▁6	-813
ines	-814
▁plan	-815
▁start	-816
▁dr	-817
ways	-818
▁become	-819
▁Here	-820
▁Chopper	-821
az	-822
ange	-823
aster	-824
▁ago	-825
▁done	-826
▁Bro	-827
▁enem	-828
▁three	-829
ier	-830
ird	-831
▁Ah	-832
▁hum	-833
▁hun	-834
▁ord	-835
▁once	-836
illion	-837
ute	-838
▁Dammit	-839
day	-840
▁stay	-841
inc	-842
▁ever	-843
▁better	-844
orn	-845
ried	-846
▁Everyone	-847
ey	-848
aught	-849
▁Take	-850
▁Sunny	-851
▁doesn	-852
▁money	-853
▁per	-854
onder	-855
app	-856
vern	-857
▁bat	-858
▁Right	-859
▁gotta	-860
▁For	-861
▁Wano	-862
▁true	-863
ai	-864
▁Spar	-865
arl	-866
▁beat	-867
▁getting	-868
pt	-869
▁bu	-870
▁dec	-871
▁many	-872
▁treasure	-873
▁being	-874
▁always	-875
oz	-876
▁bit	-877
▁sail	-878
▁Sparking	-879
eg	-880
ix	-881
so	-882
▁Can	-883
les	-884
uki	-885
ness	-886
▁may	-887
ually	-888
ao	-889
▁escape	-890
vernment	-891
▁talking	-892
oint	-893
igh	-894
▁damn	-895
▁told	-896
ivi	-897
▁Our	-898
▁ret	-899
▁66	-900
▁Blue	-901
▁Vivi	-902
pr	-903
▁save	-904
▁turn	-905
▁Pr	-906
acao	-907
▁weap	-908
▁Hurry	-909
▁hur	-910
▁Cacao	-911
▁worry	-912
▁ra	-913
▁king	-914
▁last	-915
▁might	-916
rest	-917
▁captain	-918
▁str	-919
▁death	-920
reak	-921
my	-922
eet	-923
man	-924
ence	-925
ling	-926
▁Hold	-927
▁dream	-928
▁Marines	-929
ump	-930
▁cann	-931
▁fine	-932
rent	-933
▁Oro	-934
▁far	-935
▁cake	-936
▁very	-937
▁cont	-938
aw	-939
▁Un	-940
▁everything	-941
irl	-942
▁while	-943
ok	-944
Gum	-945
▁100	-946
▁Val	-947
▁hard	-948
▁Listen	-949
▁yourself	-950
oth	-951
▁put	-952
...?!	-953
▁Q	-954
lly	-955
ister	-956
▁fall	-957
▁mo	-958
▁soon	-959
ope	-960
▁things	-961
ich	-962
▁same	-963
▁vill	-964
▁water	-965
ugg	-966
▁One	-967
▁live	-968
kyrie	-969
▁wonder	-970
▁Valkyrie	-971
▁ow	-972
▁Wor	-973
▁Shut	-974
▁Gum	-975
▁def	-976
▁pers	-977
▁return	-978
xt	-979
▁el	-980
▁app	-981
▁dest	-982
uri	-983
▁ent	-984
▁trou	-985
ks	-986
▁cook	-987
umb	-988
▁At	-989
ress	-990
▁miss	-991
▁since	-992
▁Those	-993
▁means	-994
amp	-995
ctor	-996
▁girl	-997
▁stand	-998
▁chance	-999
av	-1000
▁min	-1001
amily	-1002
otect	-1003
▁Grand	-1004
▁ask	-1005
▁pay	-1006
▁move	-1007
▁Orochi	-1008
▁lost	-1009
▁bring	-1010
▁che	-1011
▁rep	-1012
▁fool	-1013
vil	-1014
enty	-1015
▁cap	-1016
▁Good	-1017
▁Whoa	-1018
▁found	-1019
pen	-1020
unch	-1021
te	-1022
ign	-1023
pect	-1024
▁God	-1025
▁trying	-1026
▁Of	-1027
akes	-1028
▁Give	-1029
▁without	-1030
til	-1031
▁another	-1032
▁car	-1033
▁gone	-1034
ize	-1035
ret	-1036
▁hit	-1037
▁took	-1038
▁others	-1039
ins	-1040
ense	-1041
▁pret	-1042
incess	-1043
▁saw	-1044
▁Re	-1045
▁te	-1046
mon	-1047
▁sn	-1048
▁Thanks	-1049
▁battle	-1050
▁finally	-1051
ib	-1052
oc	-1053
ason	-1054
anger	-1055
▁Ace	-1056
▁See	-1057
▁able	-1058
▁!	-1059
▁hold	-1060
▁protect	-1061
▁gl	-1062
ared	-1063
iant	-1064
ollow	-1065
▁person	-1066
▁saying	-1067
▁91	-1068
▁92	-1069
▁trouble	-1070
▁pri	-1071
▁thank	-1072
▁anyone	-1073
▁'	-1074
eep	-1075
What	-1076
▁supp	-1077
med	-1078
▁Any	-1079
▁cut	-1080
▁ahead	-1081
▁friends	-1082
roy	-1083
▁Line	-1084
▁love	-1085
row	-1086
ult	-1087
ning	-1088
▁des	-1089
stand	-1090
▁close	-1091
▁please	-1092
▁His	-1093
udding	-1094
▁guess	-1095
hes	-1096
▁eas	-1097
▁lot	-1098
▁face	-1099
▁million	-1100
amur	-1101
upid	-1102
▁Koz	-1103
▁its	-1104
▁aren	-1105
als	-1106
anc	-1107
ike	-1108
▁Pudding	-1109
▁Gu	-1110
▁Com	-1111
▁ter	-1112
▁fore	-1113
▁ready	-1114
▁brother	-1115
ark	-1116
amurai	-1117
▁swords	-1118
ounds	-1119
▁also	-1120
▁point	-1121
▁train	-1122
▁surv	-1123
▁Frank	-1124
▁reason	-1125
ats	-1126
astle	-1127
▁hurt	-1128
IT	-1129
▁Sea	-1130
▁tri	-1131
▁dare	-1132
▁went	-1133
▁inc	-1134
▁men	-1135
▁looks	-1136
▁until	-1137
OU	-1138
ush	-1139
▁Jin	-1140
▁YOU	-1141
ither	-1142
▁After	-1143
▁compl	-1144
▁pretty	-1145
▁inv	-1146
icious	-1147
▁today	-1148
▁wanted	-1149
▁body	-1150
▁expl	-1151
▁enemy	-1152
▁destroy	-1153
me	-1154
ison	-1155
oger	-1156
▁fire	-1157
▁wasn	-1158
▁couldn	-1159
ont	-1160
ions	-1161
▁del	-1162
▁land	-1163
▁weak	-1164
onster	-1165
▁Sorry	-1166
▁hurry	-1167
▁lives	-1168
▁Franky	-1169
▁though	-1170
▁village	-1171
oup	-1172
urg	-1173
▁fun	-1174
ossible	-1175
ph	-1176
ief	-1177
▁Cl	-1178
▁Dr	-1179
▁Hm	-1180
▁wom	-1181
▁fish	-1182
▁meet	-1183
ng	-1184
abo	-1185
san	-1186
▁ob	-1187
uggy	-1188
▁hat	-1189
▁Roger	-1190
▁guard	-1191
ens	-1192
▁Boss	-1193
▁join	-1194
▁Jinbe	-1195
▁samurai	-1196
▁Buggy	-1197
▁against	-1198
where	-1199
▁listen	-1200
▁2	-1201
oor	-1202
ured	-1203
▁inf	-1204
ating	-1205
▁full	-1206
▁talk	-1207
iously	-1208
▁government	-1209
mor	-1210
rag	-1211
▁sk	-1212
mand	-1213
olog	-1214
ward	-1215
▁ships	-1216
▁family	-1217
more	-1218
▁May	-1219
▁best	-1220
▁seen	-1221
▁understand	-1222
mb	-1223
osed	-1224
▁Sir	-1225
▁fly	-1226
▁diff	-1227
▁next	-1228
▁quite	-1229
▁danger	-1230
ted	-1231
vel	-1232
▁pass	-1233
uk	-1234
oke	-1235
que	-1236
▁aw	-1237
▁son	-1238
▁follow	-1239
▁proble	-1240
▁wouldn	-1241
▁looking	-1242
long	-1243
▁beh	-1244
▁cri	-1245
▁Hats	-1246
▁Some	-1247
▁forg	-1248
▁home	-1249
▁seems	-1250
▁Marine	-1251
▁clou	-1252
▁human	-1253
▁second	-1254
▁stupid	-1255
aki	-1256
▁Sc	-1257
▁cho	-1258
▁else	-1259
▁mind	-1260
▁longer	-1261
min	-1262
ember	-1263
▁knew	-1264
▁lose	-1265
▁waiting	-1266
ouse	-1267
▁mom	-1268
▁deal	-1269
ention	-1270
▁monster	-1271
ug	-1272
▁ap	-1273
ital	-1274
outh	-1275
▁free	-1276
▁least	-1277
gun	-1278
uke	-1279
▁Ow	-1280
ably	-1281
body	-1282
▁cra	-1283
▁luck	-1284
▁These	-1285
▁heart	-1286
▁Pe	-1287
ying	-1288
▁mess	-1289
▁fruit	-1290
▁Kozuki	-1291
▁rec	-1292
▁inside	-1293
ten	-1294
▁Got	-1295
▁idea	-1296
▁kick	-1297
▁side	-1298
▁Me	-1299
▁Ice	-1300
▁Run	-1301
ately	-1302
▁whole	-1303
▁Arlong	-1304
▁castle	-1305
ished	-1306
unning	-1307
▁giant	-1308
▁father	-1309
▁actually	-1310
sh	-1311
▁lau	-1312
▁sec	-1313
▁Miss	-1314
▁both	-1315
▁moment	-1316
▁Veg	-1317
▁case	-1318
▁safe	-1319
▁sing	-1320
▁used	-1321
▁cur	-1322
▁reg	-1323
▁child	-1324
▁fighting	-1325
▁Kob	-1326
▁cle	-1327
▁Fire	-1328
▁gold	-1329
▁most	-1330
ountain	-1331
▁problem	-1332
air	-1333
▁ac	-1334
▁With	-1335
▁days	-1336
▁nice	-1337
▁night	-1338
▁anymore	-1339
ah	-1340
arp	-1341
ered	-1342
ient	-1343
▁Koby	-1344
▁light	-1345
▁toget	-1346
▁89	-1347
▁Kin	-1348
▁bro	-1349
▁leg	-1350
▁mon	-1351
▁lead	-1352
▁break	-1353
▁together	-1354
▁boy	-1355
▁sit	-1356
▁diffe	-1357
▁happy	-1358
gar	-1359
gry	-1360
▁acc	-1361
▁cry	-1362
beard	-1363
ution	-1364
▁myself	-1365
roc	-1366
uge	-1367
▁mir	-1368
▁Enel	-1369
▁open	-1370
▁along	-1371
ete	-1372
vent	-1373
▁fut	-1374
osuke	-1375
▁yeah	-1376
▁devil	-1377
▁caught	-1378
▁killed	-1379
▁twenty	-1380
mer	-1381
▁Lea	-1382
▁Sho	-1383
▁bus	-1384
▁rel	-1385
▁Iceb	-1386
▁haven	-1387
▁watch	-1388
▁behind	-1389
eed	-1390
▁hands	-1391
▁sweet	-1392
▁import	-1393
▁3	-1394
ised	-1395
▁top	-1396
▁Stay	-1397
▁Brother	-1398
AN	-1399
ime	-1400
▁Tom	-1401
▁cool	-1402
▁five	-1403
▁four	-1404
▁hope	-1405
▁Leave	-1406
▁blood	-1407
▁catch	-1408
▁warri	-1409
▁Princess	-1410
apunk	-1411
▁arri	-1412
▁huge	-1413
▁prom	-1414
▁anyway	-1415
▁Vegapunk	-1416
uth	-1417
▁93	-1418
▁Sabo	-1419
▁World	-1420
▁comes	-1421
▁woman	-1422
▁worth	-1423
▁Se	-1424
oron	-1425
bably	-1426
ident	-1427
inite	-1428
▁weird	-1429
asu	-1430
iness	-1431
▁glad	-1432
▁White	-1433
▁bounty	-1434
ict	-1435
yes	-1436
▁boss	-1437
▁drink	-1438
▁young	-1439
.5	-1440
ied	-1441
rif	-1442
▁ru	-1443
▁Wow	-1444
▁beg	-1445
ition	-1446
▁each	-1447
▁wish	-1448
▁saved	-1449
▁Master	-1450
▁important	-1451
key	-1452
▁Ouch	-1453
edding	-1454
▁laugh	-1455
dom	-1456
ily	-1457
uro	-1458
aken	-1459
▁Man	-1460
ility	-1461
onosuke	-1462
▁Pirate	-1463
▁called	-1464
▁running	-1465
alt	-1466
▁mar	-1467
▁Like	-1468
raight	-1469
initely	-1470
ole	-1471
▁Bege	-1472
▁earl	-1473
▁makes	-1474
▁Iceburg	-1475
▁Momonosuke	-1476
gy	-1477
▁By	-1478
▁play	-1479
▁weapons	-1480
."	-1481
men	-1482
▁Tw	-1483
asta	-1484
aring	-1485
▁Keep	-1486
▁pain	-1487
▁times	-1488
▁clouds	-1489
▁doctor	-1490
▁either	-1491
▁probably	-1492
mp	-1493
omed	-1494
▁brat	-1495
▁comp	-1496
▁defe	-1497
▁wind	-1498
▁cannot	-1499
▁taking	-1500
▁earlier	-1501
SL	-1502
AND	-1503
mper	-1504
ters	-1505
▁ISL	-1506
actly	-1507
▁Once	-1508
▁exec	-1509
▁inst	-1510
▁allow	-1511
▁ISLAND	-1512
▁making	-1513
deed	-1514
leep	-1515
▁met	-1516
eally	-1517
▁Gold	-1518
▁future	-1519
▁single	-1520
▁remember	-1521
dy	-1522
oul	-1523
▁90	-1524
▁99	-1525
▁Or	-1526
▁co	-1527
▁Red	-1528
▁city	-1529
▁late	-1530
▁surpr	-1531
▁weapon	-1532
eak	-1533
eal	-1534
led	-1535
fect	-1536
▁Help	-1537
▁amaz	-1538
▁eyes	-1539
▁tast	-1540
▁Father	-1541
▁expect	-1542
▁complete	-1543
"?	-1544
aut	-1545
ings	-1546
▁Car	-1547
▁Town	-1548
▁party	-1549
▁However	-1550
to	-1551
▁alm	-1552
ations	-1553
ertain	-1554
▁Maybe	-1555
▁forest	-1556
ets	-1557
ger	-1558
ucc	-1559
▁CA	-1560
amed	-1561
▁Per	-1562
▁different	-1563
aur	-1564
▁Bec	-1565
▁exc	-1566
▁pres	-1567
▁Black	-1568
▁Really	-1569
▁amazing	-1570
▁strange	-1571
▁mountain	-1572
▁definitely	-1573
ail	-1574
▁Che	-1575
▁Alab	-1576
zy	-1577
ror	-1578
ster	-1579
▁past	-1580
▁later	-1581
▁words	-1582
▁disapp	-1583
▁straight	-1584
ney	-1585
▁88	-1586
▁Isn	-1587
▁Say	-1588
▁dep	-1589
odile	-1590
▁news	-1591
▁prep	-1592
▁forget	-1593
▁shouldn	-1594
▁Alabasta	-1595
▁delicious	-1596
alm	-1597
tic	-1598
erry	-1599
rave	-1600
▁fle	-1601
▁room	-1602
aph	-1603
oud	-1604
▁97	-1605
reng	-1606
▁Have	-1607
▁fell	-1608
selves	-1609
▁Ad	-1610
▁hot	-1611
▁bell	-1612
▁cons	-1613
▁ones	-1614
▁shot	-1615
▁streng	-1616
▁exactly	-1617
aro	-1618
iet	-1619
▁98	-1620
▁ma	-1621
cept	-1622
▁pat	-1623
▁died	-1624
▁gave	-1625
▁seem	-1626
▁alone	-1627
▁Anyway	-1628
rocodile	-1629
▁serious	-1630
sw	-1631
lin	-1632
▁dumb	-1633
▁high	-1634
▁Looks	-1635
▁beaut	-1636
▁business	-1637
GH	-1638
imp	-1639
ned	-1640
uly	-1641
arge	-1642
ided	-1643
▁cold	-1644
▁Because	-1645
▁stronger	-1646
iff	-1647
▁Kn	-1648
ouch	-1649
▁burn	-1650
▁easy	-1651
▁belly	-1652
▁strength	-1653
▁supposed	-1654
▁dangerous	-1655
▁Cr	-1656
▁win	-1657
▁gate	-1658
▁lady	-1659
▁sold	-1660
▁spec	-1661
bt	-1662
co	-1663
its	-1664
▁eye	-1665
udden	-1666
▁Cake	-1667
▁Seven	-1668
▁treat	-1669
QU	-1670
cl	-1671
iece	-1672
owers	-1673
▁Garp	-1674
▁reach	-1675
▁trans	-1676
▁Flower	-1677
▁happens	-1678
mir	-1679
form	-1680
▁hey	-1681
▁Does	-1682
▁Tell	-1683
▁lear	-1684
mander	-1685
▁Merry	-1686
▁sense	-1687
▁which	-1688
▁entire	-1689
▁certain	-1690
▁Something	-1691
we	-1692
"?!	-1693
alf	-1694
▁Ser	-1695
▁hon	-1696
▁Head	-1697
▁hungry	-1698
▁Crocodile	-1699
col	-1700
ries	-1701
side	-1702
▁fast	-1703
▁chang	-1704
▁shoot	-1705
EN	-1706
ys	-1707
ead	-1708
oom	-1709
osh	-1710
▁Ma	-1711
edro	-1712
▁jer	-1713
▁Bring	-1714
▁known	-1715
▁scary	-1716
▁almost	-1717
▁moving	-1718
▁enemies	-1719
▁wedding	-1720
utes	-1721
▁ref	-1722
▁Whole	-1723
▁taken	-1724
▁sudden	-1725
gly	-1726
rit	-1727
▁sy	-1728
emon	-1729
▁Dad	-1730
▁pos	-1731
ction	-1732
glyph	-1733
▁Drag	-1734
▁pull	-1735
▁knows	-1736
▁stuff	-1737
oneglyph	-1738
ba	-1739
ife	-1740
▁fig	-1741
▁god	-1742
▁tea	-1743
▁blue	-1744
▁Emper	-1745
▁creat	-1746
bel	-1747
▁wa	-1748
▁dou	-1749
▁log	-1750
ortun	-1751
▁dire	-1752
▁sink	-1753
▁order	-1754
▁using	-1755
▁scared	-1756
▁surviv	-1757
ars	-1758
aru	-1759
▁EV	-1760
ched	-1761
▁capt	-1762
▁Water	-1763
▁crazy	-1764
▁remain	-1765
▁perfect	-1766
ET	-1767
LL	-1768
OW	-1769
ITH	-1770
ale	-1771
chn	-1772
ner	-1773
▁96	-1774
come	-1775
ical	-1776
irty	-1777
▁GET	-1778
▁due	-1779
▁job	-1780
▁opp	-1781
▁six	-1782
▁EVEN	-1783
▁WITH	-1784
▁yours	-1785
▁handle	-1786
iful	-1787
▁Sky	-1788
▁Army	-1789
▁fail	-1790
omeday	-1791
▁clear	-1792
▁change	-1793
▁crimin	-1794
▁greatest	-1795
ER	-1796
cy	-1797
ori	-1798
▁Ex	-1799
▁Wha	-1800
▁har	-1801
▁ris	-1802
▁sac	-1803
▁sent	-1804
▁quick	-1805
▁waste	-1806
▁flying	-1807
▁thanks	-1808
▁brought	-1809
▁worried	-1810
oa	-1811
imate	-1812
▁Quit	-1813
▁crap	-1814
▁Pedro	-1815
▁Shand	-1816
▁exist	-1817
▁poneglyph	-1818
po	-1819
aya	-1820
rot	-1821
▁Uh	-1822
▁New	-1823
▁ten	-1824
▁conf	-1825
▁First	-1826
▁Since	-1827
▁shall	-1828
▁apolog	-1829
▁minutes	-1830
▁possible	-1831
ima	-1832
▁87	-1833
ards	-1834
▁Kom	-1835
▁rid	-1836
▁Sure	-1837
▁coll	-1838
▁mine	-1839
morrow	-1840
▁front	-1841
▁sleep	-1842
▁super	-1843
▁truly	-1844
▁truth	-1845
▁Doctor	-1846
▁finish	-1847
▁report	-1848
▁current	-1849
▁tomorrow	-1850
AL	-1851
ha	-1852
LOW	-1853
PIT	-1854
▁505	-1855
▁Ahh	-1856
▁Mad	-1857
▁ate	-1858
LOWER	-1859
PITAL	-1860
▁boat	-1861
▁jump	-1862
▁carry	-1863
▁group	-1864
▁FLOWER	-1865
▁CAPITAL	-1866
▁started	-1867
▁survive	-1868
CH	-1869
org	-1870
uma	-1871
medi	-1872
▁sub	-1873
▁yes	-1874
▁sign	-1875
▁Could	-1876
▁build	-1877
▁bastards	-1878
The	-1879
ili	-1880
yle	-1881
▁Ze	-1882
alls	-1883
dred	-1884
▁ann	-1885
round	-1886
▁Lady	-1887
▁story	-1888
▁Mother	-1889
▁ground	-1890
▁immedi	-1891
▁forgive	-1892
ico	-1893
▁Sw	-1894
▁lo	-1895
ield	-1896
itch	-1897
ully	-1898
ummy	-1899
▁Kar	-1900
▁	-1901
e	-1902
t	-1903
o	-1904
a	-1905
i	-1906
n	-1907
s	-1908
h	-1909
r	-1910
l	-1911
u	-1912
.	-1913
d	-1914
y	-1915
!	-1916
m	-1917
g	-1918
w	-1919
c	-1920
f	-1921
'	-1922
p	-1923
b	-1924
,	-1925
k	-1926
I	-1927
?	-1928
v	-1929
T	-1930
W	-1931
S	-1932
H	-1933
Y	-1934
-	-1935
M	-1936
A	-1937
B	-1938
L	-1939
O	-1940
:	-1941
0	-1942
D	-1943
C	-1944
N	-1945
G	-1946
j	-1947
P	-1948
F	-1949
K	-1950
R	-1951
5	-1952
E	-1953
9	-1954
x	-1955
1	-1956
4	-1957
U	-1958
8	-1959
z	-1960
"	-1961
7	-1962
♪	-1963
6	-1964
J	-1965
q	-1966
V	-1967
2	-1968
3	-1969
Z	-1970
Q	-1971
é	-1972
û	-1973
è	-1974
=	-1975
;	-1976
X	-1977
+	-1978
(	-1979
)	-1980
É	-1981
#	-1982
î	-1983
&	-1984
ô	-1985
%	-1986
à	-1987
â	-1988
ê	-1989
\	-1990
ß	-1991
ä	-1992
ö	-1993
ü	-1994
Œ	-1995
